1E190EE0
3EFFB240
0E21E13C
DF20013F
FE2F2EC1
000021EF
4D510000
E1F214FD
2D1F031D
3CF0DEEF
0C00D3DE
CA2E3E3C
E10D30FF
3F0D5EF2
D1021FE2
00D2DE0D
FFCED010
12FEFE2F
C31224E1
E112320F
F0F1E3EF
1202F403
F2F30EBD
05CD2FDF
10FE0E11
F0D1EED3
10AF2E03
FC1D2F3F
FFE912FE
0402EF01
D011EDD1
6DFB2205
2120C21E
21130F11
30F510DF
FE4FF010
2FDE2022
1B0D0F14
5DF33C46
1FEC32EE
FE00101E
B00FFDF0
220FEDF1
00EEDE2F
FE0EE3FF
F01C2DFF
11D2EEFE
1DEE2EFF
EFDEDDD0
FB20F410
F02C02BE
133EDD15
113FDF20
2020D021
4DEEC12D
43C0E101
4001F201
3E12DF1F
1E3EE1F3
5E10D1F2
2BFED1F1
1E22FEFD
2C0010EF
11F20EE2
10250DEC
0F453DCF
0E01100F
B02F32C2
F240F30F
0212FF0F
0011320F
E64F110B
