24
20
05
0D
F2
E6
C2
32
A7
16
25
DA
E6
E4
E5
21
BC
F7
1F
00
20
F9
E8
21
E6
F6
09
EE
F7
B7
E2
31
27
F9
09
E8
E4
8C
FB
37
4C
03
D9
E6
DF
C5
C9
1F
27
BC
EB
22
FC
F1
1C
09
24
EA
FA
31
DD
C8
04
C8
14
DC
07
0E
08
AE
3E
18
06
F6
F2
1A
0A
40
18
0E
16
81
FE
0D
00
22
EB
ED
4C
F9
07
03
E0
07
34
E9
FE
E0
C9
1D
C1
F4
1C
F6
08
2D
EE
03
C7
0A
D9
CB
08
26
1B
1F
C1
F7
D6
E9
EF
2D
ED
0C
DF
FC
EE
ED
B0
1B
F4
13
D8
11
E3
3B
AC
57
14
1A
09
D9
04
6B
0E
4F
FF
0D
14
28
D5
EA
AF
67
12
0F
15
00
C1
00
E5
06
F8
05
E6
E0
FA
C0
26
D0
EE
FD
F0
16
DC
EA
0D
BD
D7
FB
E5
E9
0F
F6
DD
DC
EC
0C
E1
DD
D1
CE
F7
D6
4C
BB
0B
26
33
E9
96
AE
0A
B9
21
E7
3C
BE
E5
C9
30
E0
24
28
29
F6
E9
3F
00
F4
12
0E
00
CE
0D
26
EB
DA
2B
E9
17
09
11
1C
D2
E2
BD
C2
FC
03
1C
EF
21
E5
C5
05
33
C4
DA
C1
F9
FA
FE
0C
1B
CC
35
EA
DE
F0
F3
F9
21
CE
F0
E6
57
0B
DB
E1
0B
11
DC
E4
22
FA
F5
ED
EE
25
F0
32
50
15
F1
08
20
07
D2
EA
54
EE
10
FB
FB
29
C0
27
13
EF
00
D8
18
09
E8
FE
17
31
05
F3
DC
1F
E0
14
0F
23
A3
F8
FA
2B
F3
1E
E4
FC
E9
A4
2F
12
20
2C
FB
E0
40
EF
B3
FF
25
DD
33
1E
DA
1C
D0
2E
1D
BD
13
4C
F8
F2
35
56
03
DF
FB
04
EA
41
25
24
F9
DD
D8
0A
00
26
50
12
FE
F7
D1
26
09
3D
3D
5A
A9
2E
F4
39
0A
C8
42
10
FA
EE
F6
28
D8
FA
FB
39
05
09
D5
E8
0E
1E
17
FC
09
13
AD
F8
EF
0C
27
09
2C
07
D3
F5
3D
F2
D0
B6
EB
D7
0D
E4
39
18
F0
02
03
27
FE
E8
EF
05
E8
37
AF
22
D3
AA
F2
0A
F6
65
DE
EF
DF
B3
01
E3
05
1E
F5
46
01
C6
1E
1B
0F
FC
FA
33
DA
DE
5D
F8
12
15
21
E4
B5
ED
42
F3
06
1A
14
DC
E1
D7
33
18
17
F5
EE
08
FB
F5
18
C2
32
01
FA
16
1D
D1
FB
D4
04
E4
FE
F2
0A
DA
E2
F7
17
D4
0D
E9
29
17
EE
08
03
D4
C5
0D
3B
2D
99
2F
34
E5
FD
E4
17
FE
AC
67
01
ED
15
D5
FD
20
22
0F
E7
1D
DE
1B
10
F5
00
1C
F7
E3
A6
F1
2B
07
06
E9
F1
33
03
33
12
2E
9A
06
FB
02
F0
02
04
01
EE
0D
11
F3
E2
30
1A
60
0A
23
29
FA
