3B
D2
CE
29
37
4B
3D
DE
BF
3E
AC
01
E4
0F
08
BF
E3
C2
FB
10
D9
00
12
01
29
2A
0B
03
E0
08
F8
ED
12
0E
F2
EE
04
BA
EC
DA
73
A6
72
FF
11
F2
F9
E5
36
05
FD
1D
2F
F5
F9
FE
22
13
E2
F5
D4
FF
DE
10
F7
24
B9
0B
F1
CF
BD
36
15
EE
1A
18
3E
EC
A5
40
EA
EF
10
C0
11
26
F0
F4
09
20
FA
13
EB
3A
BE
15
02
EF
FC
F4
1A
E6
E7
14
14
FF
09
F7
E4
05
0F
ED
FB
F6
14
F5
F3
E1
EF
E0
E7
02
E8
10
E5
12
F5
E2
E8
28
5D
12
FD
CF
C1
42
E4
F1
F7
4A
30
FA
FB
6E
F5
2F
E2
CC
DF
DB
32
06
E8
D2
10
17
1F
DE
0D
10
48
F9
09
1B
38
34
32
BE
F9
13
D9
C9
0F
EB
F1
C2
00
E0
DF
C1
E0
FB
FE
2A
3B
7F
F5
D6
00
16
F9
EC
E7
F2
E3
E9
D5
E1
40
E6
33
E4
37
F2
F2
44
01
CB
FA
E6
51
1D
12
CD
CC
F5
50
07
0A
4A
C0
F6
23
F5
F8
F1
0F
F1
E8
E9
F9
05
19
F5
F3
F1
E9
09
0E
E4
E3
EC
FC
15
F6
F9
F6
13
F8
EC
FF
F4
E3
1B
00
09
FC
FD
09
19
F7
EF
F7
E0
F7
FB
07
16
FD
12
FD
E9
14
E1
F7
F5
F2
F0
0E
EC
01
F4
F6
F0
00
EF
04
11
D3
11
F9
DC
0F
16
D2
23
C5
16
D6
58
02
2A
0B
67
EB
22
FF
F6
C1
17
41
EA
D1
B4
18
1E
25
02
C8
0D
EC
E1
09
0F
FF
FB
E5
03
F2
FF
00
F0
0B
0D
FD
FC
0B
14
0A
1B
F3
EA
F6
E6
E8
EB
F7
EA
0C
FA
E6
FA
17
D5
EC
E8
12
49
51
B2
04
16
E5
15
DA
3D
42
BA
EE
13
09
1C
E5
F6
37
0C
0D
1B
E5
04
FC
F7
09
FE
55
F9
12
27
23
03
1C
D2
15
14
25
F8
E9
A5
17
CD
27
FC
EC
3B
10
02
09
FF
FA
FC
0C
DB
FC
D7
2E
F3
23
0C
D9
F0
15
EE
D8
F9
7D
D5
41
FC
3E
CA
EF
E3
20
13
E2
E7
26
4F
EF
23
EA
1F
E1
CD
1A
27
D6
23
37
FE
DA
21
31
2B
D5
14
00
F7
C9
F2
3F
BD
CD
20
F5
F4
C0
D4
EA
4B
1A
19
E8
5B
E5
BD
31
2E
E5
23
B5
04
53
16
DE
D2
1D
08
FE
29
1B
17
CA
29
38
0A
12
0E
3B
43
16
A7
EA
E9
0B
98
1F
4C
E4
B3
37
C5
