F8DCE403
0CE50F8F
A52241FB
33D9F4EF
E01A2EB5
01E5280B
FE172EEA
D8EA1D0A
28E5B40E
F8DD23F8
1B0DE0ED
FAFBF9F7
00FBFD06
4BD54B07
1742F3D0
D517F123
FB3613C5
19D412ED
283BDD0E
C0360A28
331AFEF2
D713142A
DE33E3F4
F805EB16
ED42F931
0C20FD1C
FCE4B0C8
F51AED38
1CEBC8EA
FA53B8CA
F7DD1712
1606F8E6
DFDFD530
F3FAD314
1CDB062B
09FF9CED
20F81E24
1FF1D5E4
05EC113D
16B701D0
32B53D5E
51D1EF30
3621E0E2
11F0D8B5
19F80FE6
E8DDF7FE
EDCAF701
ADFF00ED
D7CFEC12
222306EC
D2E127F6
04FDE5DB
D930FBEE
E8E600E8
B51523D4
3FCFE3E2
DD0E010E
4832C5FA
F722080A
3AFD0816
C8EC0FF6
39DF0A26
E109EA33
12E22CDC
CA0BE927
55DE1703
C707F111
27A8F0DC
F8E4F0C8
18DE2A1C
16F9D9EB
20BE07FB
