D2E6DDF9
2AC7F304
CC33CEE2
00C404FC
2BE435C2
BE9419E3
3006E9E8
E417F8D4
53D7FB27
32F3FCCD
0EEBDA20
CB100221
D1E3FEC6
01FBCD29
CAFA1600
EAEFC3E0
EADB25F0
171CEEDC
25E838F5
F6BD0ED3
1526ECDD
EEF2DB81
D7F60811
0142FF1A
E5CDD308
CDFE0F10
1A1AFF4C
63C7EAAE
C31A14DD
1A161904
03EC1016
1E0A1634
10FBD3F4
3A01F454
E5090EFF
F1D740F2
27CBF9F1
E90117C2
E2DCF3DC
0D14D51F
1EE0EFEB
14D7E1E1
C9D5C9FE
DCF7D3DB
F63E0DFF
F6AD25FD
021FACDD
F3FE19C3
D3C71152
143337D9
C9EA2906
0C0930EB
CDFC1A0B
29FB1FFC
03D8E321
1412E628
FAD2DEC0
0CFF2558
2CCBB8E6
02F4474B
09FAFDF1
02D8F809
3222BE28
B2041AEF
E72F04F2
EC213B05
F5F302F5
01251A1D
3025FEF3
00071914
1A12F8AD
D96D3EF5
